<unk>	0
<s>	0
</s>	0
th	-0
▁th	-1
▁a	-2
in	-3
er	-4
▁the	-5
is	-6
▁s	-7
at	-8
▁o	-9
en	-10
on	-11
es	-12
▁w	-13
an	-14
al	-15
re	-16
▁T	-17
it	-18
▁b	-19
▁c	-20
▁Th	-21
iv	-22
ing	-23
▁of	-24
ic	-25
or	-26
▁e	-27
▁in	-28
▁is	-29
se	-30
▁f	-31
▁m	-32
▁p	-33
▁that	-34
ou	-35
le	-36
od	-37
▁h	-38
▁"	-39
▁t	-40
▁The	-41
ce	-42
ent	-43
ion	-44
om	-45
▁d	-46
▁u	-47
▁an	-48
ar	-49
gu	-50
▁be	-51
▁su	-52
iver	-53
ed	-54
lo	-55
ts	-56
▁I	-57
God	-58
▁and	-59
ro	-60
▁P	-61
rgu	-62
▁ex	-63
▁to	-64
niver	-65
ig	-66
▁univer	-67
ch	-68
gg	-69
id	-70
ity	-71
ence	-72
▁God	-73
ct	-74
ra	-75
▁S	-76
▁l	-77
ist	-78
ith	-79
▁re	-80
▁universe	-81
st	-82
ve	-83
▁n	-84
▁ha	-85
▁wh	-86
gges	-87
▁for	-88
▁sugges	-89
im	-90
ke	-91
ly	-92
ow	-93
▁1	-94
▁A	-95
log	-96
▁st	-97
ur	-98
▁C	-99
ome	-100
▁ev	-101
▁it	-102
▁we	-103
ical	-104
olog	-105
▁argu	-106
ci	-107
ul	-108
ut	-109
▁y	-110
ive	-111
▁on	-112
▁or	-113
▁se	-114
ment	-115
ation	-116
▁This	-117
▁argue	-118
ge	-119
if	-120
la	-121
ld	-122
um	-123
ics	-124
ter	-125
▁If	-126
▁al	-127
▁con	-128
▁exp	-129
▁you	-130
ality	-131
▁with	-132
▁suggests	-133
am	-134
lu	-135
os	-136
▁2	-137
ate	-138
ble	-139
ere	-140
ess	-141
igh	-142
ind	-143
ism	-144
▁It	-145
▁as	-146
▁have	-147
▁some	-148
▁exist	-149
rgument	-150
ad	-151
ap	-152
ie	-153
il	-154
▁W	-155
ans	-156
ect	-157
ery	-158
ong	-159
ous	-160
▁mo	-161
ight	-162
▁are	-163
▁but	-164
thing	-165
ological	-166
▁Argument	-167
ea	-168
hy	-169
ot	-170
pt	-171
▁F	-172
▁g	-173
▁r	-174
ach	-175
ers	-176
ike	-177
led	-178
oin	-179
ple	-180
pon	-181
ust	-182
▁by	-183
kept	-184
ould	-185
reat	-186
▁dis	-187
▁one	-188
▁they	-189
idence	-190
bj	-191
el	-192
em	-193
hi	-194
ir	-195
ol	-196
qu	-197
so	-198
yn	-199
▁(	-200
▁B	-201
▁E	-202
▁H	-203
▁M	-204
▁R	-205
ain	-206
and	-207
any	-208
ary	-209
eri	-210
hys	-211
ign	-212
ine	-213
out	-214
rom	-215
sel	-216
ten	-217
use	-218
▁at	-219
▁ch	-220
▁fa	-221
▁lo	-222
able	-223
lain	-224
ning	-225
ower	-226
uman	-227
▁Pro	-228
▁all	-229
▁has	-230
▁pro	-231
▁str	-232
bject	-233
ouldn	-234
▁from	-235
▁many	-236
▁poin	-237
▁every	-238
bjective	-239
▁explain	-240
▁reality	-241
▁suggest	-242
▁evidence	-243
."	-244
3.	-245
4.	-246
5.	-247
aw	-248
ec	-249
he	-250
lt	-251
of	-252
pp	-253
sc	-254
ss	-255
tu	-256
▁G	-257
▁O	-258
▁j	-259
▁v	-260
age	-261
ant	-262
aps	-263
ard	-264
cen	-265
clu	-266
der	-267
eng	-268
erm	-269
est	-270
fer	-271
for	-272
ger	-273
ial	-274
ide	-275
imp	-276
its	-277
lie	-278
ory	-279
rin	-280
the	-281
ult	-282
▁An	-283
▁bi	-284
▁de	-285
▁do	-286
▁le	-287
▁wr	-288
atch	-289
ause	-290
eath	-291
ific	-292
ists	-293
ltim	-294
ness	-295
plex	-296
rans	-297
sion	-298
ving	-299
ynam	-300
▁Pan	-301
▁can	-302
▁com	-303
▁not	-304
▁our	-305
▁pre	-306
▁why	-307
▁wor	-308
esign	-309
▁like	-310
▁more	-311
▁must	-312
▁phys	-313
▁than	-314
▁this	-315
▁were	-316
theism	-317
▁Skept	-318
▁belie	-319
▁human	-320
▁often	-321
▁point	-322
▁ultim	-323
▁watch	-324
▁wrong	-325
erience	-326
▁wouldn	-327
▁without	-328
▁ultimate	-329
▁everything	-330
▁subjective	-331
,"	-332
0.	-333
1.	-334
2.	-335
6.	-336
7.	-337
8.	-338
9.	-339
Tu	-340
ab	-341
ak	-342
co	-343
cy	-344
ek	-345
et	-346
ex	-347
gh	-348
gy	-349
kn	-350
ks	-351
lf	-352
mm	-353
nd	-354
nt	-355
pe	-356
tr	-357
tw	-358
xp	-359
▁D	-360
▁N	-361
▁U	-362
act	-363
ads	-364
ame	-365
ang	-366
ars	-367
asc	-368
ast	-369
cis	-370
cov	-371
des	-372
dit	-373
eel	-374
emp	-375
ern	-376
ert	-377
fin	-378
ful	-379
gra	-380
ies	-381
ime	-382
ire	-383
lan	-384
les	-385
lin	-386
mat	-387
nal	-388
ode	-389
ond	-390
ons	-391
osm	-392
our	-393
pic	-394
rou	-395
sal	-396
sop	-397
tra	-398
ual	-399
ure	-400
uts	-401
vel	-402
ves	-403
vil	-404
▁To	-405
▁ar	-406
▁he	-407
▁if	-408
▁kn	-409
▁ne	-410
▁no	-411
▁qu	-412
▁ra	-413
▁sh	-414
▁us	-415
abil	-416
ains	-417
ands	-418
ants	-419
cean	-420
cend	-421
elig	-422
ents	-423
gaps	-424
hilo	-425
imul	-426
ince	-427
ings	-428
ions	-429
ited	-430
ived	-431
like	-432
mmer	-433
ppro	-434
rain	-435
ross	-436
tuit	-437
ular	-438
ural	-439
ward	-440
▁Exp	-441
▁For	-442
▁Sci	-443
▁bec	-444
▁cre	-445
▁div	-446
▁don	-447
▁how	-448
▁ind	-449
▁isn	-450
▁law	-451
▁mom	-452
▁mor	-453
▁nat	-454
▁now	-455
▁pos	-456
▁rem	-457
▁res	-458
▁sci	-459
▁set	-460
▁var	-461
▁who	-462
ached	-463
antum	-464
ascal	-465
cious	-466
ciple	-467
ction	-468
ength	-469
ermod	-470
erson	-471
iable	-472
iffer	-473
itial	-474
odern	-475
ology	-476
ponge	-477
rough	-478
▁Some	-479
▁also	-480
▁code	-481
▁cons	-482
▁eter	-483
▁evol	-484
▁find	-485
▁form	-486
▁here	-487
▁know	-488
▁live	-489
▁lose	-490
▁mind	-491
▁most	-492
▁outs	-493
▁real	-494
▁self	-495
▁simp	-496
▁stat	-497
▁time	-498
▁what	-499
Tuning	-500
covery	-501
istory	-502
onging	-503
reater	-504
reator	-505
selves	-506
▁Panen	-507
▁Relig	-508
▁appro	-509
▁being	-510
▁brain	-511
▁death	-512
▁faith	-513
▁might	-514
▁ocean	-515
▁power	-516
▁right	-517
▁skept	-518
▁trans	-519
▁where	-520
▁world	-521
ability	-522
clusion	-523
entific	-524
grammer	-525
hilosop	-526
ousands	-527
plexity	-528
ponents	-529
ynamics	-530
▁Pascal	-531
▁Univer	-532
▁design	-533
▁divine	-534
▁intuit	-535
▁moment	-536
▁posits	-537
▁sponge	-538
▁things	-539
▁toward	-540
ifferent	-541
rinciple	-542
▁Thermod	-543
▁believe	-544
▁creator	-545
▁eternal	-546
▁initial	-547
▁nothing	-548
▁outside	-549
▁physics	-550
▁reached	-551
▁remains	-552
▁through	-553
ciousness	-554
imulation	-555
▁Skeptics	-556
▁approach	-557
▁existing	-558
▁strength	-559
▁discovery	-560
▁existence	-561
▁transcend	-562
▁universal	-563
▁Proponents	-564
▁experience	-565
▁suggesting	-566
▁Panentheism	-567
▁Thermodynamics	-568
"—	-569
),	-570
DE	-571
Go	-572
NA	-573
Qu	-574
Sh	-575
ai	-576
ay	-577
az	-578
bo	-579
bs	-580
cc	-581
ey	-582
ff	-583
go	-584
ia	-585
ib	-586
iz	-587
ns	-588
ob	-589
ok	-590
ox	-591
pa	-592
po	-593
pr	-594
py	-595
rv	-596
ry	-597
si	-598
sw	-599
sy	-600
ty	-601
ue	-602
un	-603
ye	-604
▁L	-605
▁V	-606
DEs	-607
Fir	-608
Lan	-609
Nec	-610
Pro	-611
Sec	-612
acy	-613
ade	-614
agg	-615
aic	-616
all	-617
aly	-618
are	-619
art	-620
ays	-621
bat	-622
ben	-623
ces	-624
cha	-625
cks	-626
den	-627
dic	-628
dle	-629
ean	-630
ear	-631
ech	-632
een	-633
ele	-634
erc	-635
erp	-636
ese	-637
ext	-638
flu	-639
gin	-640
giv	-641
got	-642
gut	-643
hen	-644
ich	-645
idn	-646
iew	-647
ife	-648
ile	-649
ill	-650
ilo	-651
ino	-652
int	-653
ira	-654
ise	-655
isk	-656
ite	-657
lay	-658
lig	-659
lue	-660
mak	-661
man	-662
min	-663
nde	-664
ney	-665
oci	-666
ods	-667
odu	-668
oks	-669
ole	-670
one	-671
ope	-672
oul	-673
ows	-674
por	-675
pro	-676
put	-677
rag	-678
ran	-679
rav	-680
rid	-681
rit	-682
ses	-683
shi	-684
sum	-685
uch	-686
ugg	-687
vai	-688
ver	-689
▁1.	-690
▁2.	-691
▁3.	-692
▁4.	-693
▁5.	-694
▁6.	-695
▁7.	-696
▁8.	-697
▁9.	-698
▁At	-699
▁Be	-700
▁Ch	-701
▁Fa	-702
▁In	-703
▁Is	-704
▁Of	-705
▁Pl	-706
▁Qu	-707
▁Re	-708
▁St	-709
▁Wa	-710
▁We	-711
▁ac	-712
▁af	-713
▁en	-714
▁id	-715
▁up	-716
Epic	-717
Fine	-718
Gold	-719
NDEs	-720
Shap	-721
adox	-722
alia	-723
ally	-724
ange	-725
appe	-726
arch	-727
azor	-728
bate	-729
bits	-730
blem	-731
book	-732
bser	-733
ccam	-734
cess	-735
cles	-736
dict	-737
ease	-738
edit	-739
ency	-740
enet	-741
ense	-742
ergy	-743
ersp	-744
esis	-745
evil	-746
feel	-747
ffer	-748
form	-749
fuse	-750
give	-751
good	-752
heat	-753
heer	-754
hers	-755
heth	-756
hile	-757
hind	-758
ians	-759
ibut	-760
iece	-761
iety	-762
iliz	-763
ious	-764
ires	-765
irtu	-766
ives	-767
ivid	-768
lass	-769
lest	-770
life	-771
lins	-772
luke	-773
nate	-774
nden	-775
ntro	-776
oftw	-777
oinc	-778
olid	-779
omes	-780
omic	-781
oral	-782
ossi	-783
pace	-784
pert	-785
pose	-786
pped	-787
reak	-788
rely	-789
rink	-790
rviv	-791
scin	-792
seek	-793
self	-794
selm	-795
sume	-796
sust	-797
swer	-798
sych	-799
temp	-800
tent	-801
ters	-802
that	-803
thro	-804
tist	-805
tled	-806
trig	-807
ures	-808
urns	-809
vent	-810
ways	-811
wind	-812
ynth	-813
yond	-814
▁10.	-815
▁11.	-816
▁12.	-817
▁13.	-818
▁14.	-819
▁15.	-820
▁16.	-821
▁17.	-822
▁18.	-823
▁19.	-824
▁20.	-825
▁21.	-826
▁22.	-827
▁23.	-828
▁24.	-829
▁25.	-830
▁Big	-831
▁Bla	-832
▁Col	-833
▁Com	-834
▁Con	-835
▁Cre	-836
▁DNA	-837
▁Hid	-838
▁Law	-839
▁Not	-840
▁Ont	-841
▁Par	-842
▁Sec	-843
▁bit	-844
▁cal	-845
▁cat	-846
▁civ	-847
▁dom	-848
▁eff	-849
▁ent	-850
▁ess	-851
▁eye	-852
▁fam	-853
▁fra	-854
▁fue	-855
▁gap	-856
▁gut	-857
▁had	-858
▁hum	-859
▁hur	-860
▁its	-861
▁job	-862
▁lar	-863
▁led	-864
▁lim	-865
▁log	-866
▁mat	-867
▁mos	-868
▁non	-869
▁oth	-870
▁par	-871
▁pur	-872
▁rad	-873
▁see	-874
▁tra	-875
▁yes	-876
Death	-877
First	-878
Langu	-879
acter	-880
ading	-881
aling	-882
alyst	-883
anged	-884
arted	-885
ategy	-886
cedes	-887
cenes	-888
emist	-889
empor	-890
ences	-891
enges	-892
erman	-893
etary	-894
exist	-895
fines	-896
fused	-897
gered	-898
giver	-899
hysic	-900
ially	-901
icism	-902
igher	-903
ingle	-904
ingly	-905
ional	-906
irely	-907
ither	-908
ively	-909
lable	-910
ledge	-911
maker	-912
matic	-913
ocial	-914
oduct	-915
order	-916
ories	-917
osmos	-918
ource	-919
ously	-920
ponse	-921
ports	-922
power	-923
proof	-924
puter	-925
ridge	-926
right	-927
roads	-928
tract	-929
tween	-930
ually	-931
unfor	-932
urean	-933
urons	-934
ution	-935
▁Bang	-936
▁Cons	-937
▁Cosm	-938
▁Crit	-939
▁Evil	-940
▁Fine	-941
▁Fran	-942
▁Gaps	-943
▁Hole	-944
▁Inde	-945
▁Mind	-946
▁Mira	-947
▁Near	-948
▁Sing	-949
▁Tele	-950
▁They	-951
▁When	-952
▁With	-953
▁aren	-954
▁attr	-955
▁avai	-956
▁bagg	-957
▁been	-958
▁bypr	-959
▁cert	-960
▁char	-961
▁clin	-962
▁clue	-963
▁come	-964
▁cope	-965
▁cult	-966
▁delu	-967
▁didn	-968
▁does	-969
▁fact	-970
▁fate	-971
▁feel	-972
▁fire	-973
▁game	-974
▁gods	-975
▁grav	-976
▁hasn	-977
▁head	-978
▁hide	-979
▁hint	-980
▁idea	-981
▁jour	-982
▁just	-983
▁laws	-984
▁less	-985
▁made	-986
▁mast	-987
▁mean	-988
▁mort	-989
▁much	-990
▁mult	-991
▁need	-992
▁once	-993
▁only	-994
▁over	-995
▁past	-996
▁perc	-997
▁plan	-998
▁play	-999
▁prag	-1000
▁prob	-1001
▁requ	-1002
▁risk	-1003
▁seek	-1004
▁seem	-1005
▁sele	-1006
▁sign	-1007
▁soul	-1008
▁such	-1009
▁tech	-1010
▁text	-1011
▁them	-1012
▁view	-1013
▁when	-1014
Necess	-1015
Shaped	-1016
aining	-1017
andard	-1018
ansion	-1019
bender	-1020
bserve	-1021
ceived	-1022
cision	-1023
cludes	-1024
enetic	-1025
estion	-1026
finite	-1027
format	-1028
gotcha	-1029
hether	-1030
ibuted	-1031
ilocks	-1032
manage	-1033
minacy	-1034
ntropy	-1035
qualia	-1036
sality	-1037
stants	-1038
tempts	-1039
teract	-1040
terest	-1041
uggles	-1042
ynamic	-1043
▁Being	-1044
▁Cause	-1045
▁Chall	-1046
▁Class	-1047
▁Faith	-1048
▁Great	-1049
▁Human	-1050
▁Moral	-1051
▁Occam	-1052
▁Often	-1053
▁Persp	-1054
▁Power	-1055
▁Razor	-1056
▁Revel	-1057
▁Since	-1058
▁Synth	-1059
▁These	-1060
▁Trans	-1061
▁Virtu	-1062
▁Wager	-1063
▁While	-1064
▁after	-1065
▁along	-1066
▁beach	-1067
▁begin	-1068
▁break	-1069
▁cause	-1070
▁cited	-1071
▁coinc	-1072
▁cross	-1073
▁extra	-1074
▁finds	-1075
▁fluke	-1076
▁influ	-1077
▁known	-1078
▁leads	-1079
▁level	-1080
▁light	-1081
▁lived	-1082
▁logic	-1083
▁looks	-1084
▁noted	-1085
▁order	-1086
▁proof	-1087
▁psych	-1088
▁relig	-1089
▁sense	-1090
▁sheer	-1091
▁shows	-1092
▁since	-1093
▁softw	-1094
▁solid	-1095
▁space	-1096
▁stars	-1097
▁still	-1098
▁subat	-1099
▁their	-1100
▁these	-1101
▁turns	-1102
▁unden	-1103
▁wants	-1104
▁which	-1105
▁while	-1106
▁would	-1107
Secular	-1108
ameters	-1109
appears	-1110
denness	-1111
ectives	-1112
editing	-1113
emistry	-1114
erpiece	-1115
ersonal	-1116
ffering	-1117
givable	-1118
greater	-1119
ificant	-1120
impossi	-1121
istency	-1122
iverses	-1123
ividual	-1124
longing	-1125
perties	-1126
rviving	-1127
shipped	-1128
tention	-1129
thropic	-1130
ularity	-1131
uralism	-1132
winding	-1133
▁Anselm	-1134
▁Blaise	-1135
▁Design	-1136
▁Experi	-1137
▁Modern	-1138
▁Physic	-1139
▁Second	-1140
▁Theory	-1141
▁across	-1142
▁always	-1143
▁answer	-1144
▁artist	-1145
▁assume	-1146
▁behind	-1147
▁belief	-1148
▁beyond	-1149
▁biolog	-1150
▁bridge	-1151
▁called	-1152
▁change	-1153
▁cosmos	-1154
▁couldn	-1155
▁credit	-1156
▁debate	-1157
▁domino	-1158
▁effect	-1159
▁either	-1160
▁energy	-1161
▁essent	-1162
▁exists	-1163
▁explan	-1164
▁fascin	-1165
▁fueled	-1166
▁higher	-1167
▁humans	-1168
▁hurdle	-1169
▁inform	-1170
▁innate	-1171
▁invent	-1172
▁itself	-1173
▁larger	-1174
▁loving	-1175
▁matter	-1176
▁modern	-1177
▁mosaic	-1178
▁moving	-1179
▁nature	-1180
▁orbits	-1181
▁others	-1182
▁perman	-1183
▁person	-1184
▁points	-1185
▁rarely	-1186
▁result	-1187
▁scenes	-1188
▁search	-1189
▁shrink	-1190
▁simply	-1191
▁single	-1192
▁social	-1193
▁source	-1194
▁states	-1195
▁static	-1196
▁tempor	-1197
▁theism	-1198
▁timely	-1199
▁tradit	-1200
▁usable	-1201
Argument	-1202
Language	-1203
ationism	-1204
existent	-1205
ologians	-1206
philosop	-1207
powerful	-1208
utionary	-1209
▁Collins	-1210
▁Critics	-1211
▁Entropy	-1212
▁Francis	-1213
▁Genetic	-1214
▁History	-1215
▁Indeter	-1216
▁Paradox	-1217
▁Problem	-1218
▁Process	-1219
▁Quantum	-1220
▁Science	-1221
▁Whether	-1222
▁baggage	-1223
▁because	-1224
▁becomes	-1225
▁between	-1226
▁biology	-1227
▁certain	-1228
▁changed	-1229
▁civiliz	-1230
▁complex	-1231
▁defines	-1232
▁disease	-1233
▁dynamic	-1234
▁feeling	-1235
▁forgive	-1236
▁gravity	-1237
▁greater	-1238
▁healing	-1239
▁history	-1240
▁journey	-1241
▁leading	-1242
▁limited	-1243
▁longing	-1244
▁meaning	-1245
▁natural	-1246
▁neurons	-1247
▁observe	-1248
▁percent	-1249
▁predict	-1250
▁purpose	-1251
▁quantum	-1252
▁radical	-1253
▁reports	-1254
▁science	-1255
▁settled	-1256
▁skeptic	-1257
▁someone	-1258
▁started	-1259
▁stories	-1260
▁usually	-1261
▁variety	-1262
Epicurean	-1263
Necessary	-1264
formative	-1265
hilosophy	-1266
triggered	-1267
▁Interest	-1268
▁Miracles	-1269
▁Personal	-1270
▁Religion	-1271
▁Theology	-1272
▁Universe	-1273
▁argument	-1274
▁attempts	-1275
▁breaking	-1276
▁catalyst	-1277
▁clinical	-1278
▁computer	-1279
▁confused	-1280
▁contract	-1281
▁creation	-1282
▁cultures	-1283
▁delusion	-1284
▁designed	-1285
▁disorder	-1286
▁entirely	-1287
▁evolving	-1288
▁famously	-1289
▁fraction	-1290
▁infinite	-1291
▁interact	-1292
▁lawgiver	-1293
▁morality	-1294
▁physical	-1295
▁powerful	-1296
▁precedes	-1297
▁question	-1298
▁requires	-1299
▁response	-1300
▁simplest	-1301
▁skeptics	-1302
▁software	-1303
▁standard	-1304
▁strategy	-1305
▁textbook	-1306
▁variable	-1307
Goldilocks	-1308
Programmer	-1309
impossible	-1310
management	-1311
sustaining	-1312
▁Anthropic	-1313
▁Arguments	-1314
▁Classical	-1315
▁Pantheism	-1316
▁Pluralism	-1317
▁Principle	-1318
▁Religious	-1319
▁Synthesis	-1320
▁Thousands	-1321
▁Virtually	-1322
▁afterlife	-1323
▁available	-1324
▁beginning	-1325
▁byproduct	-1326
▁character	-1327
▁chemistry	-1328
▁conceived	-1329
▁concludes	-1330
▁constants	-1331
▁different	-1332
▁expansion	-1333
▁explained	-1334
▁influence	-1335
▁intention	-1336
▁intuition	-1337
▁knowledge	-1338
▁lightning	-1339
▁mortality	-1340
▁objective	-1341
▁ourselves	-1342
▁planetary	-1343
▁pragmatic	-1344
▁precision	-1345
▁principle	-1346
▁religions	-1347
▁selection	-1348
▁something	-1349
▁struggles	-1350
▁subatomic	-1351
▁suffering	-1352
▁suggested	-1353
▁surviving	-1354
▁temporary	-1355
▁thousands	-1356
▁Challenges	-1357
▁Complexity	-1358
▁Conclusion	-1359
▁Experience	-1360
▁Hiddenness	-1361
▁Philosophy	-1362
▁Physicists	-1363
▁Revelation	-1364
▁Scientific	-1365
▁Simulation	-1366
▁Skepticism	-1367
▁attributed	-1368
▁biological	-1369
▁biologists	-1370
▁complexity	-1371
▁conclusion	-1372
▁crossroads	-1373
▁disappears	-1374
▁individual	-1375
▁inventions	-1376
▁parameters	-1377
▁permanence	-1378
▁programmer	-1379
▁properties	-1380
▁scientific	-1381
▁simulation	-1382
▁themselves	-1383
▁throughout	-1384
▁transcends	-1385
▁undeniable	-1386
▁watchmaker	-1387
▁worshipped	-1388
philosophers	-1389
unforgivable	-1390
▁Creationism	-1391
▁Experiences	-1392
▁Ontological	-1393
▁Singularity	-1394
▁coincidence	-1395
▁consistency	-1396
▁essentially	-1397
▁explanation	-1398
▁fascination	-1399
▁indifferent	-1400
▁information	-1401
▁intuitively	-1402
▁masterpiece	-1403
▁multiverses	-1404
▁probability	-1405
▁significant	-1406
▁theologians	-1407
▁theological	-1408
▁traditional	-1409
▁Cosmological	-1410
▁Perspectives	-1411
▁Teleological	-1412
▁Universality	-1413
▁civilization	-1414
▁evolutionary	-1415
▁transcendent	-1416
▁Consciousness	-1417
▁Indeterminacy	-1418
▁Interestingly	-1419
▁consciousness	-1420
▁psychological	-1421
▁Transformative	-1422
▁intentionality	-1423
▁predictability	-1424
12	-1425
14	-1426
17	-1427
18	-1428
20	-1429
21	-1430
23	-1431
24	-1432
Ba	-1433
Bl	-1434
Ep	-1435
Fr	-1436
Is	-1437
Pe	-1438
Se	-1439
Si	-1440
So	-1441
Th	-1442
Un	-1443
au	-1444
cu	-1445
ee	-1446
eg	-1447
eh	-1448
eu	-1449
ew	-1450
fu	-1451
gm	-1452
io	-1453
ip	-1454
ma	-1455
me	-1456
mu	-1457
ne	-1458
oc	-1459
ph	-1460
pi	-1461
ps	-1462
pu	-1463
rg	-1464
ru	-1465
sf	-1466
sm	-1467
ta	-1468
ua	-1469
uc	-1470
ui	-1471
vi	-1472
yt	-1473
zo	-1474
▁3	-1475
▁k	-1476
Bla	-1477
Com	-1478
Cre	-1479
Dea	-1480
For	-1481
Gap	-1482
Gre	-1483
Hum	-1484
Law	-1485
Mod	-1486
Mor	-1487
NDE	-1488
Not	-1489
Par	-1490
Rel	-1491
Som	-1492
ado	-1493
ali	-1494
ana	-1495
anc	-1496
app	-1497
ara	-1498
ari	-1499
19	-1500
Ch	-1501
Co	-1502
Ex	-1503
La	-1504
ag	-1505
bl	-1506
fi	-1507
fo	-1508
fr	-1509
ga	-1510
hm	-1511
op	-1512
to	-1513
Des	-1514
Pan	-1515
ane	-1516
ase	-1517
ata	-1518
atc	-1519
ati	-1520
ato	-1521
atu	-1522
awg	-1523
bab	-1524
bil	-1525
bit	-1526
bre	-1527
but	-1528
cal	-1529
cat	-1530
ced	-1531
cho	-1532
cid	-1533
cit	-1534
com	-1535
con	-1536
cro	-1537
cul	-1538
dar	-1539
dge	-1540
dif	-1541
div	-1542
don	-1543
ead	-1544
eal	-1545
ece	-1546
eed	-1547
ein	-1548
eis	-1549
eiv	-1550
elu	-1551
ely	-1552
ene	-1553
eni	-1554
ens	-1555
eon	-1556
erf	-1557
esp	-1558
esu	-1559
eth	-1560
eur	-1561
fat	-1562
fic	-1563
gam	-1564
gap	-1565
ged	-1566
ggl	-1567
gic	-1568
god	-1569
gre	-1570
gum	-1571
han	-1572
hap	-1573
hat	-1574
hed	-1575
hes	-1576
hic	-1577
hin	-1578
his	-1579
ian	-1580
ict	-1581
icu	-1582
idu	-1583
ief	-1584
ien	-1585
iet	-1586
igg	-1587
igi	-1588
ila	-1589
ili	-1590
imu	-1591
inc	-1592
inf	-1593
ink	-1594
ins	-1595
inv	-1596
iou	-1597
irt	-1598
isa	-1599
15	-1600
Cl	-1601
Pr	-1602
av	-1603
da	-1604
eo	-1605
ng	-1606
oi	-1607
ri	-1608
sl	-1609
up	-1610
we	-1611
wg	-1612
yp	-1613
Big	-1614
Con	-1615
His	-1616
Min	-1617
Per	-1618
Vir	-1619
cin	-1620
din	-1621
eer	-1622
erl	-1623
ges	-1624
her	-1625
hou	-1626
idg	-1627
ina	-1628
ini	-1629
inn	-1630
isc	-1631
isn	-1632
iso	-1633
iti	-1634
iva	-1635
ivi	-1636
jou	-1637
kep	-1638
ker	-1639
lar	-1640
las	-1641
ldi	-1642
ldn	-1643
lea	-1644
lec	-1645
lem	-1646
len	-1647
leo	-1648
lev	-1649
lex	-1650
lif	-1651
liv	-1652
loc	-1653
lon	-1654
los	-1655
lov	-1656
lud	-1657
lus	-1658
lut	-1659
men	-1660
mes	-1661
mis	-1662
mit	-1663
mod	-1664
mor	-1665
mos	-1666
mse	-1667
nam	-1668
nat	-1669
nce	-1670
ned	-1671
nen	-1672
nes	-1673
nif	-1674
nis	-1675
niv	-1676
nly	-1677
non	-1678
now	-1679
nse	-1680
nth	-1681
ody	-1682
oft	-1683
old	-1684
oll	-1685
olo	-1686
olv	-1687
omp	-1688
ona	-1689
onf	-1690
ood	-1691
ora	-1692
ord	-1693
ore	-1694
org	-1695
ori	-1696
orm	-1697
osa	-1698
oss	-1699
Cr	-1700
Sk	-1701
Vi	-1702
Wa	-1703
Wh	-1704
Wi	-1705
af	-1706
ba	-1707
by	-1708
ck	-1709
dg	-1710
du	-1711
eb	-1712
ef	-1713
eq	-1714
fa	-1715
gl	-1716
jo	-1717
ju	-1718
ki	-1719
lv	-1720
lw	-1721
ms	-1722
nk	-1723
nl	-1724
oe	-1725
pl	-1726
rb	-1727
rf	-1728
rp	-1729
sk	-1730
sr	-1731
tl	-1732
tn	-1733
tt	-1734
ud	-1735
uk	-1736
us	-1737
va	-1738
vo	-1739
wi	-1740
yc	-1741
za	-1742
arg	-1743
can	-1744
chm	-1745
dom	-1746
era	-1747
esi	-1748
gis	-1749
gua	-1750
lit	-1751
lur	-1752
onc	-1753
ost	-1754
oth	-1755
own	-1756
pan	-1757
ped	-1758
per	-1759
phi	-1760
pie	-1761
pla	-1762
pos	-1763
pow	-1764
pre	-1765
pts	-1766
rac	-1767
rad	-1768
ram	-1769
rat	-1770
rce	-1771
rea	-1772
rec	-1773
red	-1774
rep	-1775
req	-1776
res	-1777
rig	-1778
ris	-1779
roa	-1780
rob	-1781
roc	-1782
rod	-1783
rog	-1784
ron	-1785
roo	-1786
rop	-1787
ros	-1788
rse	-1789
rst	-1790
sci	-1791
see	-1792
sen	-1793
ser	-1794
sic	-1795
sin	-1796
sit	-1797
son	-1798
sro	-1799
Ar	-1800
At	-1801
Bi	-1802
Ev	-1803
Fa	-1804
Ga	-1805
Ge	-1806
Gr	-1807
Ho	-1808
Hu	-1809
In	-1810
It	-1811
Mo	-1812
ND	-1813
On	-1814
Pl	-1815
Po	-1816
Ra	-1817
St	-1818
Tr	-1819
ac	-1820
cr	-1821
ds	-1822
gn	-1823
ik	-1824
ll	-1825
lm	-1826
rc	-1827
rm	-1828
sa	-1829
su	-1830
ys	-1831
▁6	-1832
▁8	-1833
▁9	-1834
Sin	-1835
ath	-1836
att	-1837
cer	-1838
dis	-1839
erg	-1840
gga	-1841
har	-1842
how	-1843
iff	-1844
lat	-1845
lis	-1846
mer	-1847
oes	-1848
rel	-1849
sis	-1850
sta	-1851
tab	-1852
tal	-1853
tan	-1854
tar	-1855
tbo	-1856
ted	-1857
tem	-1858
tha	-1859
thi	-1860
thr	-1861
tic	-1862
tim	-1863
tin	-1864
tis	-1865
tiv	-1866
tle	-1867
tor	-1868
tri	-1869
tro	-1870
tsi	-1871
tum	-1872
tur	-1873
twe	-1874
uct	-1875
uen	-1876
ues	-1877
uir	-1878
uit	-1879
ume	-1880
urd	-1881
urn	-1882
urp	-1883
var	-1884
vid	-1885
vie	-1886
vin	-1887
vit	-1888
viv	-1889
war	-1890
wat	-1891
wer	-1892
win	-1893
xis	-1894
xit	-1895
ych	-1896
yes	-1897
you	-1898
yst	-1899
10	-1900
13	-1901
16	-1902
Be	-1903
De	-1904
Fi	-1905
Mi	-1906
Ne	-1907
Re	-1908
Te	-1909
To	-1910
bu	-1911
cs	-1912
dd	-1913
de	-1914
dn	-1915
do	-1916
fe	-1917
gi	-1918
gr	-1919
gs	-1920
gt	-1921
ht	-1922
je	-1923
ls	-1924
mi	-1925
mo	-1926
na	-1927
nf	-1928
ni	-1929
no	-1930
oo	-1931
rl	-1932
sp	-1933
tc	-1934
ti	-1935
ub	-1936
uf	-1937
wa	-1938
wl	-1939
wn	-1940
xi	-1941
▁Q	-1942
arc	-1943
enc	-1944
end	-1945
eor	-1946
eve	-1947
gth	-1948
hip	-1949
idd	-1950
kin	-1951
lab	-1952
loo	-1953
mou	-1954
ner	-1955
ort	-1956
ply	-1957
sar	-1958
sed	-1959
tat	-1960
twa	-1961
way	-1962
yth	-1963
zat	-1964
▁10	-1965
▁11	-1966
▁12	-1967
▁13	-1968
▁14	-1969
▁15	-1970
▁16	-1971
▁17	-1972
▁18	-1973
▁19	-1974
▁21	-1975
▁22	-1976
▁23	-1977
▁24	-1978
▁25	-1979
▁Ca	-1980
▁Cl	-1981
▁Co	-1982
▁Cr	-1983
▁DN	-1984
▁En	-1985
▁Ev	-1986
▁Ex	-1987
▁Fr	-1988
▁Ho	-1989
▁Mi	-1990
▁Ne	-1991
▁Oc	-1992
▁On	-1993
▁Pa	-1994
▁Po	-1995
▁Pr	-1996
▁Ra	-1997
▁Sc	-1998
▁Se	-1999
25	-2000
Ca	-2001
Es	-2002
If	-2003
Ph	-2004
We	-2005
as	-2006
be	-2007
bi	-2008
ca	-2009
cl	-2010
dy	-2011
ei	-2012
ep	-2013
ev	-2014
fl	-2015
ft	-2016
ho	-2017
hu	-2018
nn	-2019
nv	-2020
ny	-2021
oa	-2022
ov	-2023
rd	-2024
rs	-2025
sh	-2026
tb	-2027
te	-2028
ug	-2029
wo	-2030
wr	-2031
ws	-2032
xt	-2033
yo	-2034
▁7	-2035
▁i	-2036
▁q	-2037
ace	-2038
ais	-2039
ave	-2040
eat	-2041
gue	-2042
hem	-2043
isi	-2044
lid	-2045
nin	-2046
ont	-2047
orl	-2048
ors	-2049
oug	-2050
phy	-2051
rem	-2052
ren	-2053
san	-2054
sly	-2055
tch	-2056
ven	-2057
wle	-2058
yon	-2059
▁Si	-2060
▁Sk	-2061
▁Sy	-2062
▁Te	-2063
▁Tr	-2064
▁Wh	-2065
▁ap	-2066
▁av	-2067
▁ba	-2068
▁br	-2069
▁bu	-2070
▁ca	-2071
▁ci	-2072
▁cl	-2073
▁co	-2074
▁cr	-2075
▁cu	-2076
▁di	-2077
▁dy	-2078
▁ef	-2079
▁ei	-2080
▁es	-2081
▁et	-2082
▁ey	-2083
▁fe	-2084
▁fi	-2085
▁fl	-2086
▁fr	-2087
▁fu	-2088
▁gu	-2089
▁hi	-2090
▁ho	-2091
▁hu	-2092
▁la	-2093
▁li	-2094
▁ma	-2095
▁me	-2096
▁mi	-2097
▁mu	-2098
▁ob	-2099
11	-2100
22	-2101
An	-2102
DN	-2103
En	-2104
Fo	-2105
Hi	-2106
No	-2107
Oc	-2108
Of	-2109
Pa	-2110
Sc	-2111
Sy	-2112
br	-2113
di	-2114
dl	-2115
ha	-2116
hr	-2117
li	-2118
mp	-2119
nc	-2120
og	-2121
rn	-2122
rt	-2123
sn	-2124
wh	-2125
▁4	-2126
▁5	-2127
Ban	-2128
Fin	-2129
Gen	-2130
Hid	-2131
aws	-2132
boo	-2133
cam	-2134
cip	-2135
cre	-2136
enn	-2137
erv	-2138
hal	-2139
mic	-2140
ose	-2141
ral	-2142
tho	-2143
uan	-2144
uke	-2145
zor	-2146
▁20	-2147
▁Ph	-2148
▁jo	-2149
▁oc	-2150
▁ou	-2151
▁ov	-2152
▁pa	-2153
▁ph	-2154
▁pl	-2155
▁po	-2156
▁pr	-2157
▁ps	-2158
▁pu	-2159
▁sc	-2160
▁si	-2161
▁sk	-2162
▁so	-2163
▁sp	-2164
▁te	-2165
▁ti	-2166
▁tr	-2167
▁tu	-2168
▁ul	-2169
▁un	-2170
▁wa	-2171
▁wi	-2172
▁wo	-2173
Argu	-2174
Hist	-2175
Mind	-2176
Sing	-2177
With	-2178
ager	-2179
aila	-2180
aith	-2181
aker	-2182
alin	-2183
alis	-2184
alit	-2185
alle	-2186
amic	-2187
amou	-2188
anat	-2189
anen	-2190
anet	-2191
angu	-2192
anin	-2193
ansc	-2194
ansf	-2195
anth	-2196
aped	-2197
arad	-2198
aram	-2199
arie	-2200
arit	-2201
atal	-2202
ateg	-2203
ater	-2204
ates	-2205
atic	-2206
ativ	-2207
atom	-2208
ator	-2209
atur	-2210
ceiv	-2211
cent	-2212
ched	-2213
cial	-2214
ciou	-2215
clud	-2216
clus	-2217
cter	-2218
ctiv	-2219
dent	-2220
ding	-2221
econ	-2222
ecul	-2223
eing	-2224
eism	-2225
eled	-2226
ener	-2227
enes	-2228
enth	-2229
enti	-2230
ered	-2231
eren	-2232
eres	-2233
erin	-2234
erse	-2235
erti	-2236
erve	-2237
esig	-2238
ests	-2239
esul	-2240
eter	-2241
etic	-2242
evel	-2243
fect	-2244
forg	-2245
ften	-2246
fter	-2247
ging	-2248
gion	-2249
gmat	-2250
hall	-2251
hipp	-2252
hout	-2253
hrin	-2254
ible	-2255
ican	-2256
icis	-2257
idea	-2258
iden	-2259
idge	-2260
ient	-2261
ieve	-2262
imat	-2263
imit	-2264
impl	-2265
inat	-2266
inci	-2267
inds	-2268
ined	-2269
ines	-2270
ingl	-2271
ingu	-2272
inic	-2273
inin	-2274
init	-2275
ints	-2276
iona	-2277
irac	-2278
irst	-2279
isap	-2280
isea	-2281
isor	-2282
istr	-2283
itic	-2284
itin	-2285
itiv	-2286
itse	-2287
ivil	-2288
ivin	-2289
ject	-2290
just	-2291
king	-2292
know	-2293
lais	-2294
lead	-2295
lect	-2296
leng	-2297
leve	-2298
lief	-2299
ling	-2300
lity	-2301
logi	-2302
logy	-2303
long	-2304
lose	-2305
loso	-2306
main	-2307
mics	-2308
mist	-2309
msel	-2310
nfor	-2311
nsel	-2312
nter	-2313
oder	-2314
odyn	-2315
oint	-2316
olut	-2317
omin	-2318
onal	-2319
once	-2320
onen	-2321
onge	-2322
onis	-2323
onse	-2324
onst	-2325
orar	-2326
orld	-2327
orts	-2328
osit	-2329
otch	-2330
oted	-2331
ough	-2332
ourn	-2333
ousn	-2334
owle	-2335
pear	-2336
pect	-2337
peri	-2338
picu	-2339
prod	-2340
ptic	-2341
qual	-2342
quan	-2343
ques	-2344
quir	-2345
ract	-2346
ramm	-2347
rare	-2348
rate	-2349
real	-2350
rean	-2351
rece	-2352
rgue	-2353
rgum	-2354
righ	-2355
road	-2356
rong	-2357
roof	-2358
ropy	-2359
scal	-2360
selv	-2361
sent	-2362
sics	-2363
sist	-2364
soph	-2365
ssro	-2366
stan	-2367
ster	-2368
sual	-2369
tain	-2370
tary	-2371
tera	-2372
terl	-2373
term	-2374
tern	-2375
ther	-2376
thes	-2377
thin	-2378
thou	-2379
tics	-2380
ting	-2381
tion	-2382
trib	-2383
tsid	-2384
tual	-2385
uant	-2386
ulat	-2387
uron	-2388
urpo	-2389
urse	-2390
used	-2391
usta	-2392
uted	-2393
uter	-2394
very	-2395
vity	-2396
xist	-2397
xity	-2398
▁Ban	-2399
▁Cla	-2400
▁Cos	-2401
▁Ent	-2402
▁Fin	-2403
▁Gap	-2404
▁Gen	-2405
▁Hum	-2406
▁Ind	-2407
▁Mod	-2408
▁Mor	-2409
▁Occ	-2410
▁Per	-2411
▁Phi	-2412
▁Phy	-2413
▁Pow	-2414
▁Raz	-2415
▁Rel	-2416
▁Sim	-2417
▁Sin	-2418
▁Ske	-2419
▁Som	-2420
▁Syn	-2421
▁Tho	-2422
▁Vir	-2423
▁Whe	-2424
▁Whi	-2425
▁als	-2426
▁alw	-2427
▁ans	-2428
▁app	-2429
▁art	-2430
▁ass	-2431
▁att	-2432
▁bea	-2433
▁beg	-2434
▁beh	-2435
▁bel	-2436
▁bet	-2437
▁bey	-2438
▁bra	-2439
▁bre	-2440
▁byp	-2441
▁cer	-2442
▁cit	-2443
▁clu	-2444
▁cod	-2445
▁cos	-2446
▁cou	-2447
▁cro	-2448
▁cul	-2449
▁dea	-2450
▁deb	-2451
▁def	-2452
▁des	-2453
▁did	-2454
▁dif	-2455
▁dyn	-2456
▁evo	-2457
▁ext	-2458
▁fas	-2459
▁fat	-2460
▁fin	-2461
▁flu	-2462
▁gam	-2463
▁god	-2464
▁gra	-2465
▁gre	-2466
▁her	-2467
▁hid	-2468
▁hig	-2469
▁hin	-2470
▁his	-2471
▁inf	-2472
▁inn	-2473
▁int	-2474
▁inv	-2475
▁jou	-2476
▁les	-2477
▁lig	-2478
▁liv	-2479
▁lon	-2480
▁loo	-2481
▁lov	-2482
▁mad	-2483
▁man	-2484
▁mig	-2485
▁min	-2486
▁mod	-2487
▁mov	-2488
▁mul	-2489
▁obj	-2490
▁obs	-2491
▁oce	-2492
▁oft	-2493
▁orb	-2494
▁ord	-2495
▁per	-2496
▁phy	-2497
▁pla	-2498
▁pow	-2499
▁pra	-2500
▁psy	-2501
▁rea	-2502
▁rel	-2503
▁rep	-2504
▁req	-2505
▁ris	-2506
▁sel	-2507
▁sen	-2508
▁she	-2509
▁sig	-2510
▁sim	-2511
▁sin	-2512
▁ske	-2513
▁sof	-2514
▁sol	-2515
▁som	-2516
▁sou	-2517
▁spa	-2518
▁sti	-2519
▁sub	-2520
▁suc	-2521
▁suf	-2522
▁sug	-2523
▁sur	-2524
▁tem	-2525
▁tex	-2526
▁tha	-2527
▁thi	-2528
▁tho	-2529
▁thr	-2530
▁tim	-2531
▁tow	-2532
▁tur	-2533
▁ult	-2534
▁und	-2535
▁vie	-2536
▁wan	-2537
▁wat	-2538
▁wer	-2539
▁whi	-2540
▁wou	-2541
Great	-2542
aking	-2543
alism	-2544
alled	-2545
amics	-2546
amous	-2547
anage	-2548
ancis	-2549
andar	-2550
aning	-2551
anthe	-2552
aract	-2553
arame	-2554
arger	-2555
arity	-2556
aster	-2557
ataly	-2558
atchm	-2559
ative	-2560
atter	-2561
ature	-2562
babil	-2563
batom	-2564
cause	-2565
cends	-2566
cient	-2567
cross	-2568
ctive	-2569
dical	-2570
ecess	-2571
econd	-2572
ectiv	-2573
eligi	-2574
eling	-2575
ement	-2576
empts	-2577
ender	-2578
enthe	-2579
entif	-2580
erent	-2581
erien	-2582
ering	-2583
erpie	-2584
eryth	-2585
espon	-2586
essar	-2587
esult	-2588
extbo	-2589
ffect	-2590
finit	-2591
ggage	-2592
ggest	-2593
ggles	-2594
ghout	-2595
gramm	-2596
great	-2597
guage	-2598
icant	-2599
idden	-2600
idual	-2601
ience	-2602
igger	-2603
ightn	-2604
igion	-2605
igned	-2606
ignif	-2607
ility	-2608
imate	-2609
imely	-2610
imply	-2611
impos	-2612
inacy	-2613
ingul	-2614
ining	-2615
iolog	-2616
ionar	-2617
ionis	-2618
ision	-2619
isten	-2620
istor	-2621
istry	-2622
ithou	-2623
itics	-2624
iting	-2625
ition	-2626
itive	-2627
ivers	-2628
ivine	-2629
iving	-2630
laise	-2631
lanet	-2632
ldilo	-2633
lieve	-2634
locks	-2635
logic	-2636
logis	-2637
losop	-2638
lural	-2639
mains	-2640
ments	-2641
molog	-2642
oints	-2643
ollin	-2644
ologi	-2645
oment	-2646
omeon	-2647
ometh	-2648
omino	-2649
omple	-2650
onclu	-2651
onent	-2652
onsci	-2653
orary	-2654
osaic	-2655
osits	-2656
otcha	-2657
ousan	-2658
owerf	-2659
owled	-2660
pears	-2661
philo	-2662
produ	-2663
ptics	-2664
quant	-2665
quest	-2666
radit	-2667
redit	-2668
rinci	-2669
roach	-2670
roble	-2671
rogra	-2672
ropic	-2673
ropon	-2674
sable	-2675
shipp	-2676
sible	-2677
sical	-2678
sophy	-2679
tabil	-2680
tence	-2681
teres	-2682
thers	-2683
tiver	-2684
tolog	-2685
tside	-2686
tware	-2687
ueled	-2688
uence	-2689
ultur	-2690
umans	-2691
uning	-2692
urdle	-2693
ursel	-2694
vaila	-2695
xperi	-2696
▁Anth	-2697
▁Argu	-2698
▁Hist	-2699
▁Pasc	-2700
▁Pers	-2701
▁Phys	-2702
▁Prin	-2703
▁Proc	-2704
▁Theo	-2705
▁Ther	-2706
▁Thes	-2707
▁Thou	-2708
▁alon	-2709
▁answ	-2710
▁betw	-2711
▁brid	-2712
▁chan	-2713
▁chem	-2714
▁coin	-2715
▁comp	-2716
▁conc	-2717
▁conf	-2718
▁cont	-2719
▁cosm	-2720
▁disc	-2721
▁eith	-2722
▁ener	-2723
▁ever	-2724
▁evid	-2725
▁exis	-2726
▁expl	-2727
▁fasc	-2728
▁forg	-2729
▁heal	-2730
▁high	-2731
▁hist	-2732
▁init	-2733
▁intu	-2734
▁itse	-2735
▁lawg	-2736
▁lead	-2737
▁leve	-2738
▁ligh	-2739
▁long	-2740
▁migh	-2741
▁neur	-2742
▁perm	-2743
▁pers	-2744
▁prec	-2745
▁pred	-2746
▁prin	-2747
▁prog	-2748
▁proo	-2749
▁prop	-2750
▁rare	-2751
▁scen	-2752
▁sear	-2753
▁sett	-2754
▁show	-2755
▁sing	-2756
▁soci	-2757
▁sour	-2758
▁spon	-2759
▁stan	-2760
▁star	-2761
▁stil	-2762
▁stor	-2763
▁stru	-2764
▁subj	-2765
▁sugg	-2766
▁surv	-2767
▁temp	-2768
▁thei	-2769
▁theo	-2770
▁thes	-2771
▁thin	-2772
▁thou	-2773
▁vari	-2774
▁wher	-2775
▁whic	-2776
▁wors	-2777
Design	-2778
Univer	-2779
aggage	-2780
alleng	-2781
ameter	-2782
anence	-2783
anscen	-2784
ansfor	-2785
aradox	-2786
asterp	-2787
atural	-2788
cholog	-2789
cience	-2790
dition	-2791
eaning	-2792
ective	-2793
ecular	-2794
eeling	-2795
enness	-2796
ential	-2797
ention	-2798
entire	-2799
ercent	-2800
ertain	-2801
erties	-2802
essary	-2803
essent	-2804
esting	-2805
ferent	-2806
fering	-2807
forgiv	-2808
gement	-2809
ggests	-2810
hysics	-2811
icists	-2812
igions	-2813
imited	-2814
inding	-2815
inical	-2816
inning	-2817
ionary	-2818
istent	-2819
isting	-2820
ivable	-2821
iverse	-2822
iviliz	-2823
keptic	-2824
lained	-2825
lation	-2826
leolog	-2827
luence	-2828
lusion	-2829
mation	-2830
mative	-2831
ndeter	-2832
nivers	-2833
odynam	-2834
ollins	-2835
ologis	-2836
olving	-2837
omplex	-2838
othing	-2839
ourney	-2840
ousand	-2841
picure	-2842
ponent	-2843
quires	-2844
ragmat	-2845
rancis	-2846
ravity	-2847
ritics	-2848
rossro	-2849
scious	-2850
ssical	-2851
tality	-2852
termin	-2853
ternal	-2854
thesis	-2855
tribut	-2856
tually	-2857
uantum	-2858
urpose	-2859
ustain	-2860
utside	-2861
zation	-2862
▁Ansel	-2863
▁Entro	-2864
▁Genet	-2865
▁Inter	-2866
▁Philo	-2867
▁Simul	-2868
▁Theor	-2869
▁Therm	-2870
▁Thous	-2871
▁Wheth	-2872
▁argum	-2873
▁assum	-2874
▁becom	-2875
▁chang	-2876
▁conce	-2877
▁const	-2878
▁could	-2879
▁creat	-2880
▁defin	-2881
▁disap	-2882
▁disco	-2883
▁disea	-2884
▁disor	-2885
▁dynam	-2886
▁expan	-2887
▁exper	-2888
▁expla	-2889
▁great	-2890
▁indif	-2891
▁indiv	-2892
▁infin	-2893
▁infor	-2894
▁inter	-2895
▁itsel	-2896
▁obser	-2897
▁prece	-2898
▁quant	-2899
▁quest	-2900
▁reach	-2901
▁repor	-2902
▁shrin	-2903
▁simpl	-2904
▁simul	-2905
▁stand	-2906
▁start	-2907
▁stren	-2908
▁theis	-2909
▁thing	-2910
▁thous	-2911
▁throu	-2912
▁usual	-2913
▁varie	-2914
Epicure	-2915
Goldilo	-2916
Quantum	-2917
agement	-2918
anation	-2919
aracter	-2920
ationis	-2921
batomic	-2922
cendent	-2923
cidence	-2924
eligion	-2925
eniable	-2926
entions	-2927
erspect	-2928
esigned	-2929
extbook	-2930
fluence	-2931
ginning	-2932
hysical	-2933
ignific	-2934
ination	-2935
ingular	-2936
iracles	-2937
istence	-2938
ization	-2939
keptics	-2940
lection	-2941
ligions	-2942
linical	-2943
logical	-2944
ltimate	-2945
mselves	-2946
niverse	-2947
oftware	-2948
orality	-2949
ossible	-2950
ousness	-2951
owerful	-2952
pproach	-2953
product	-2954
raction	-2955
ranscen	-2956
ransfor	-2957
reaking	-2958
reation	-2959
sustain	-2960
terlife	-2961
trigger	-2962
tuition	-2963
tuitive	-2964
ulation	-2965
ultiver	-2966
ultures	-2967
▁Anthro	-2968
▁Hidden	-2969
▁Panthe	-2970
▁Person	-2971
▁Plural	-2972
▁Proble	-2973
▁Propon	-2974
▁Religi	-2975
▁Scient	-2976
▁attemp	-2977
▁cataly	-2978
▁comput	-2979
▁conclu	-2980
▁contra	-2981
▁differ	-2982
▁discov	-2983
▁entire	-2984
▁evolut	-2985
▁expans	-2986
▁experi	-2987
▁famous	-2988
▁intent	-2989
▁object	-2990
▁oursel	-2991
▁parame	-2992
▁precis	-2993
▁predic	-2994
▁progra	-2995
▁respon	-2996
▁scient	-2997
▁someon	-2998
▁someth	-2999
▁strate	-3000
▁streng	-3001
▁strugg	-3002
▁suffer	-3003
▁surviv	-3004
▁watchm	-3005
▁withou	-3006
▁worshi	-3007
allenges	-3008
bability	-3009
ditional	-3010
emporary	-3011
entheism	-3012
entially	-3013
eriences	-3014
erything	-3015
estingly	-3016
hilosoph	-3017
ightning	-3018
ionality	-3019
irtually	-3020
lanation	-3021
lanetary	-3022
lassical	-3023
ologists	-3024
onscious	-3025
perience	-3026
ragmatic	-3027
ranscend	-3028
rguments	-3029
roughout	-3030
tability	-3031
unforgiv	-3032
vailable	-3033
velation	-3034
ventions	-3035
ynthesis	-3036
▁Skeptic	-3037
▁Theolog	-3038
▁Univers	-3039
▁chemist	-3040
▁confuse	-3041
▁consist	-3042
▁disappe	-3043
▁individ	-3044
▁knowled	-3045
▁masterp	-3046
▁propert	-3047
▁subject	-3048
▁theolog	-3049
▁univers	-3050
ermanence	-3051
ermodynam	-3052
formation	-3053
hysicists	-3054
ilization	-3055
iological	-3056
mological	-3057
ndeniable	-3058
omplexity	-3059
onclusion	-3060
rogrammer	-3061
rossroads	-3062
scination	-3063
terminacy	-3064
tological	-3065
xperience	-3066
▁Creation	-3067
▁Perspect	-3068
▁Philosop	-3069
▁Singular	-3070
▁attribut	-3071
▁indiffer	-3072
▁multiver	-3073
▁signific	-3074
▁watchmak	-3075
chological	-3076
leological	-3077
ntological	-3078
oincidence	-3079
ransformat	-3080
▁conscious	-3081
▁evolution	-3082
▁intuitive	-3083
dictability	-3084
eleological	-3085
hilosophers	-3086
osmological	-3087
terestingly	-3088
ermodynamics	-3089
onsciousness	-3090
sychological	-3091
tentionality	-3092
▁Transformat	-3093
▁	-3094
e	-3095
t	-3096
i	-3097
a	-3098
s	-3099
n	-3100
o	-3101
r	-3102
h	-3103
l	-3104
c	-3105
u	-3106
d	-3107
g	-3108
m	-3109
f	-3110
p	-3111
y	-3112
.	-3113
v	-3114
w	-3115
b	-3116
"	-3117
,	-3118
T	-3119
x	-3120
G	-3121
k	-3122
I	-3123
P	-3124
S	-3125
'	-3126
-	-3127
1	-3128
A	-3129
C	-3130
2	-3131
F	-3132
j	-3133
E	-3134
W	-3135
?	-3136
N	-3137
—	-3138
’	-3139
(	-3140
)	-3141
B	-3142
D	-3143
H	-3144
M	-3145
R	-3146
q	-3147
3	-3148
4	-3149
5	-3150
O	-3151
0	-3152
6	-3153
7	-3154
8	-3155
9	-3156
;	-3157
L	-3158
U	-3159
z	-3160
:	-3161
Q	-3162
V	-3163
